2316200618260D1322180A111A1E0F22
2B24270A180704190A17030D0F20311A
17241B0629312418310C05171824201E
0D111320221C072819110028001B2E1D
080C1505022512311D1A1A1421120327
2C31181B30140F283130290330131200
091A0E290810063005200F231A212B27
29242B1B2E1E2B202A112F192B31211D
0B271C07081C2D071C171C131828250F
11312B0F061A222B2513042C24021A15
16152E2D061F1E28002D282F04250B14
2411030C19092014170F23191F302614
07282B06250D123023171B2D1B0B2904
1A231D0F23001B131127162D28071420
1B271A1A25230C2F0A242B0E2A0B3008
26220D0A20160E240322222007072602
0116060717202B142B132A211B010C1B
241A06081E1E191E14252A01161C001F
26230301290C16201C0C0B1D2A111308
1F122922042D0828010F210C041C222B
0C1F1A0D062C311F1B0B0A1A0D191B0E
152706312502020910091C22180C002F
1F2F0030240311180E162912232B0D20
1F1B230D0B1B09252B180206291B042D
1A3005041A141D27262D1B0A15061F09
07261F0219301026262A041C20031B1D
2D2706160310172B1208190D250B0825
0624120A2E1910191D171C0131062812
080B081531212D3024052B0E2311112C
1D10080229032B03181712010F120D14
11292D221325232B2D260B2C1A172603
28260C2D091A0131122A1B07071A060B
0406012D0D220B222D061B302C0F2C00
13271B03161E13131E3107310C041325
1301111D2714231D0B2712241C060013
002E220B1215231C241914220405120C
01130113141E1B211920030B14251F15
062819281E00130312130F2819261305
0C0918280E081D31172C091B03102216
2F0123202628000620220D251C0D1020
2B17300321153010030F1F1E14121D01
2D2E12170A1C0D1E2529190401302101
2D1C2B08052A0D202208291019060E25
2D070018171B170C142A2C230C242C17
111400081E2522272C1C140417262E01
0C110013160E181C2E1B17222C2B2308
1B0D00032E29020503062A1C06102329
1B1713210F250B20212E0718192E0214
2D26001A1615242C253127142F262309
10212D002D222226020D032A071F0120
30051A110B20301D0D070F150B0E051E
26011522162218132A0D062211251811
19290C062F2C032A21182613292D290C
2B2C1104252A0F1F11291B3018181F24
1F16252E2F0E0D171106212D22272420
151E28231C082A31222D050A2A2E2A05
31082217221F2A0D0610171628272601
292E0C30142F112A192A1D0C3115301B
0C31092116140D201B0A0C2007022817
1C081314070A0C291B312B241A081519
2501040E14241801222709030C0B1827
051C281D2A2E031E090A03162411121B
1D2F221403280B21061B251A1E2D152C
2A0F26171E15242F0B26232B1204260E
2A0523121310250F202D15040C15291C
1E021218141F050E2F1B2E1015260111
1B1714190400110B01311324201A2030
110A0D09040A210A181C131A2A21062C
2E1C1002301919280E14151914050225
1A282F1D060913002E2C260030110520
3020081A122B301131012B17241F2225
1224222F0026192D072D242C29032609
2F1F04061623160E16261B05061B1406
05312624291B1317130A24151E151930
140E1C291C0F18061102070B14111008
2E2112120C1E210B281B2503260E1C2B
06121605081B20002B11052A21202005
081D0C1206130C221E06110701241F1C
280C0A0B062F0B0716231A1724080511
1C2D1E0E200D1C252531131B240E2418
261A271F292A1B2F1722110113170C00
02222115251C17201E0E12310A0C2613
19082F11151C100E28111B0616110E29
21072C31241D1F170C061C0B17120B2E
280F2A0D2E04160728062C090D06242B
052D260D220524102A08130B2F301526
312F0C260F23240E2A0E12252330032B
2C0A1D16292C0907262C0F2410262D30
251B002D022C08272518231131142400
02251A0C100B0916022B1E181E0F2C15
14000A262131082E1105002C2F070428
0830240B2B1000022B040B1E0D042428
2A011210130A2A240A0E04091D031E27
2F0E270D182E0913102B0F1814021315
241C0F231B1E151D0C21022E230C1420
0829030B140D0B052D27151A18221C04
041B0D0A050627230C17040F18131411
1E1C280F02200707240B29111F2D2C09
022B091101042E1A06270512251E100A
1B1029101801002721220810250C2E26
1B302A0704280715222E02300A2B182F
0C2D25151D23270729032C0B1F0F1409
2C2E031F19040B2502012A2501053016
0714250E2719081E1020271A182F202A
0B0B0F1610180728011F3122020A1906
1E2D141B0420172431292C1717250417
1D043014011800011C142221101D0A29
153004302520102C0109020214131F28
0B282B000425060C142A26051E2A270C
1E0C2A252E1D2200212A051B301D0A11
090C2B1F11181A001B2B2C0F1A1C1E20
1C1C2E0631260017152F170A2D1D190F
06161D1F221531301D2421283128101C
14192A26080505071D301F2C31140E2D
0D2E28262D030205040F2F18212E1405
24220112121106182820270C212B0905
1C15272B04240E15223008301D0F0922
08262E240F2F00082602201424140608
082E161F1103291D1E30272E0D1A0322
2929300C2B301E16022F24301D271E11
31082D131D0125232E28112301071D14
2C09072008082411272B2B200D04300C
0C26012B13110D1E1A15020E15200508
3010011C0724290318052B070E071010
08172311071916212B231E1A1711152A
1D26051C2C1B272600230108142A2628
072A2A1C2E15041D30062A0E2400152A
1A1A16031927000C2709082304071104
