4535476B49381E31525D545804717604
294E305D415D3E32424B415640606370
4B7E46474A76094D717A061840511F56
2054615773731F03062110226A33640C
237A4506790D643B0A733961275C7D54
4C2826602829270D1D7D4B6D243E3634
4E597D3E6E42044B6557316B197A475B
10560F1E0B4B083D4C585B586220556E
2F201D72175D215E753C7144397E6A11
4B0B3712223B61463F432F6E155C1A05
3366754D194E7849391D06345455563A
7D4C63086A506555486C696553227629
7264164A6A1C303D7C274469154D5140
53714D73071675696C13580D7A597C7A
0E211648375657530C6F022C1B303936
1148732C5147334A5372255E3B320D67
172611082E5A1F5E3D083F70012F0550
05575C1952571A18404064632B070342
093507094F397A1F44684A7D21071135
58113528695A26383B2C69331C6B7E17
03636B110B046F29786A79500B79360A
1A5D601D12435D6425562E3B7E5B445D
4F405E2F1F2F1E0B6D323A1624670272
3624391E2B79124F4C1B370322391A1C
4D4618471B071E7E7C6C1835081E0550
7E5033185B3C1A20291C2446175C7825
7A72032E350074056E2120077C161149
133B204C1725262E1A3A287851646101
11241D0079730874673F23761C160106
1E351D271E665E1F0E7834196B6F373A
0A6163084C0D305411756D521602370D
0B41767E35784E7B7D1E5B3A1F52493B
70665B1E1252180B330472142F307C17
53307B5729471B124E503445211C420D
1473775F0A0543392D0E492C782E4E09
1512040F5B41375F0410422774340952
3E7117635C561B57326A0E2765657B41
4332235276365A33484458192F416635
77247E036F12021F69207C5139106270
2E3B1033276C176C410015540D220B5F
0A2A2E1B6F3F4B2F055A200E6D6D2153
713D6F3022045816725F7D43021E0D29
28197E4E290C213903145A4E653C007D
7C5616744A731005240D5D3B273A6929
2005117A44234622325E313D1304460F
494B083D46222E78144240134655311E
1D1865371B617D1E2F6143315F536369
2327616D3738770D73483A6D59130312
74387616555240213053267712447D78
25015D7B64270D4B6426180057285735
3F122A252316064870361A393E2F452C
2D14107529115F33662F432A570A7D5B
2C721931243405671A333F665D31241A
5F7230124860202C665A34187C044A0A
2F0E2021510D3F5D274D240B6C5C1145
2A797D44651C685313254828027C234F
6C651D40743C621B091F262953797713
266A2E353C786A4A5564505223146B0E
060C5352771D7C6A71157D3074087C4F
5F3272232B3E2C0C3C5F725A64525641
3F663F60236C2D5C00167C253552415D
49645F674717094F793D663D34602646
2F6D4B60257A014B58215834121A025F
7874304C292A6764352E044A6C703945
7E473B0250596C163B361E257C0A4865
4C3170356260082E4E19416A06360168
44326C68426709084552096629681112
2222534F2C05216B3624335D3D371045
4257482733086B3E02024E70394D1B64
21756B7E0D51322B615F0B27300C5B48
5C5D64313E27735B290C4262276D521A
241E050852784809262F0F263F735A68
1B016C41703B6A531334090125314F2D
422D5B594F4B0C1B0B263E5A20277032
3210071F4E2C643C14330028224E021B
7E3A76731A504137537446116B142A3C
1B425D5F7E004F0D152C107268117A57
487E72751D523D123C77730433434544
6738735578335C0965291E7437450B3C
697A1B1863644F280B19102F602A7846
331F311D28285A4755527502112F0F03
26736C2D374D3023774B6E5A6D637127
26072A60574B17173416570C2D2C5B4F
63676E1F2F783F611747516F642D3252
493F031E101F2B7E50602C3E1C590706
5F402A3C55763E645F5841673E176525
42474F1E55305636341263485420505A
5B161A575F604F7D526C175452590564
7206716D6022567C30441416342C0F51
4F3D024A325E72222A613E5D767E6C2C
487E66313E592761160D2310795F770A
25255279036F67692240111A3C7C0A1E
58740556604E226648790C14524E7766
255C1022486C531227456B484C223D58
56693D411E631E64236C1E53183C4019
7C3A123E6A746749263A04735A076D3A
4B254C3F4C610C45737B203E12107769
2E0C037D747E1C5B6546336A03565241
385F0E7B74652D65684C6E4212104636
4704645307044D380259590C1F592554
7E3D7D441C261A0C3A2E2B694F230109
500D46615C125154134F5A7A262F090B
3F4C637E66000619521A496F46054A50
7B047D693566692176282C4935264B69
7C7D5D2C255121592F590C764472691D
287122163D142F14020F317D07413961
052700226A4E785B345A62423C452003
526F6F76123374483F06247115687D67
75323C4E0B43340F5B24590A074B766E
1E0F6F7E704D0753131F1B17430B2248
01032B101327133A1542785904046C4F
376440605D4A532B0E7E22637573227A
0A0C333E22181D350C4313546E54353F
515C337A76411B522A0A607322282235
060F586A3B336534485A480F4C7C6F74
5A4134047A343E165365094730086D2B
015B6229356A2E6A7B24123116231E2C
78506F4818445E441342012F5D2D6D52
2875222B4A13641D114D086772426304
0958223A4C6C653C153D636A0A052665
1F267534660F7A6021402D4C7D303738
2217106567373379716A22433C1A1B48
295F55531E5F0D3A7903397C6E48420E
5E4E2B4D0624643709474A472A4A2F11
2C331E4623481E6904665B480F0E5D2D
2B3A345B1E5E2D50397E7D74044E1974
457B6C7409222F43666A52565F31662D
522A76395605237C13030E2D0B140901
4814487774676357020B6E25284C464A
2D7A6340531A5D2F0D043D0B4C2B617D
68275E7620442F0F58581729073D2477
0D576A731E443B160D3E252569650901
341D63331708020037192A002D1D226F
54243C0E7913404418743A472C52271F
1611645E714D77650D002C0A64237574
2D2906405B42032F52346D6E67064004
520E3B447604384003307B634C573B2F
2D637301576F571E3B174148311A7035
0756221A4B01243D7216393C60762D1F
00642616354D38371C653351554B4D4A
1708245D414B1D1C1B70076078497E21
2974333D1D03522815373B3A21217A27
0621226E0F7C163D680C7278640F1906
77335C3003332F7068312477706F0920
3956033C23703A436621612078220373
7D792A0974016D436320626C1C3D236A
056B597866226B01645F2D1566585505
6E18452B5E61040D500A03571426062E
040F0918233A3D4815492D3D18645179
74604B3507524F284417386639426E2B
4907411558542834553D723C74364172
612A640C067473300E7250706A5D2A09
167A5A2C397D441C474D330320160E52
2355166445347C1A357E1602476B034F
184643032E2B493A1E524B7A640A112F
0A1338601A6A717C720669670C144417
5D0879022F4C4D6C1909713C5F761A63
7D764F3D0408063E364B332D6F472821
1F283E2D5A31287A640E26772A461B6B
3F52541257631B553D387C1A1B415546
6C24176B314F682E5A1A52212414281E
1B4C023B4044626924102B1922453E2B
0A385A6E392848676C4141392D76680E
1A7C7B07201A04467E03481D6016702B
74564C0E064B596E7C39700B6B226F6B
4F0E613E464A6E281C134715322B6E78
2E4A576C1846520A131E10302D5F713A
51363C736D304A1A7353474F1B377E79
27510900141C2252727A525D14454603
6927691650361721140735112926717D
1806023E6F63532A193A5579217B753F
0E43777274104C27295C382A4C0D154B
0320542859137A047B2576454D14607A
087621483D2D51101F3A712F2621565B
12160A595D0B144F096448617B4D1C6D
7B260861566A4924565558400103260C
7753023D1F6A25454E08420924355802
46127D3801713F6F6C3D623762732C70
562519157E032813072B51734006514D
2E066F557E04472F3F32646D1E5A2E33
4D5A182E3F1822180B623F7E6B407B4A
4611131C281F5B471067456F550E6027
5A6A08742A3738653B0E370657666762
2648100B17160F79392F6E5B0F542D2E
5A287303006A3E292F52411861092205
2F454E36501E562C204200066F171108
2174702F0F4F2D15062F5D2155286739
01784F6E520B4D652617716118463625
6D5F0A417D6F57185E20371E6A7C3468
2B500B3D073C1A6A024A295C673C0C5D
5E564F005D4E0C0032611537313E671E
3767036E4216191A492E4D2F1E4F6932
383400415629524B7C6A360767565622
46736F2A537B5E103F57082B55714C34
6C432300281E04182D22207C5E695860
4E46524976392B601E523D6D185F255B
712851125672630A284009763242693C
413A4D531D755A1B6B390F6B20622F3A
7A0810474F7C561B6C652D14443B6E7E
665F6537202B40785635436752316A45
1F493147427A076F183C16077E3F531C
6C6558276D5E562808253C38065C446C
58053756031011324B75767728160F4B
4E47733D642873156329521D68420B4A
3523010E52463C263C4F352E1B570050
16676204294A655D77140E104B586604
020437496F526622211A7C552B5C1158
675774025B6700576C4D61167D233263
5C756579442D26545A4827726E0B4A74
2D483C60775B282479601707762D6E47
546D4F0147714C606A7B5D127C49525D
2B03113050004E2E6A1E251C1D65340C
35402862586765706776507A75010101
4D6F5C78602E14604B31033C28290256
2D351C5A5841361D631E214E641E7A63
5244584F0F755F7C4C1C5D642E70116A
7D6336774A5747581D27007A5076615A
457C6C091029281B7170040E4C3D550F
53707A294663194F033A22411E163D53
017C4D432A182A0F4B033B1869594A32
705E64632235773A3B306247095B387A
2C751D210C101C2869054E5964626D27
6F0746392557275D535A06001400460C
08535E327443451B3B677C7C23013D70
3F5F2C145A320E5E3977360277706D47
0E44345E4A5F68257320657C75360733
0C7B361D5C20091A29631C0E441E595C
01300C0A340C664F03022170543F5479
25191A620B3A3D71420108030B121561
2F5A4D4340730E2F6002292F3E2F117C
49003419476F2A684F6534047C3C2B46
2E3167136F3E633E0970112311222451
0F134758740064277713150B535D4129
031F1938333C5C161C314B700C154D2E
552932342F1E575E352939780C644C2C
18355E611253563F312D17175D5A7167
37003C651055370E43101D3A0D325A3E
724968230E6137251478144177712A63
1B53714D5C316F69534F5375200D3741
781B00041C3F4E154947104858654866
0835172C5311580A78087B2F4B643722
067108150073723A7A052C5F74045115
605A1A76141F10106D660110642A4B79
1D32522A1C5D35016058347D1E25741F
460723693A52284621104E6A7132111E
44335F505A26210378337C624D6B736A
633B6D090A386B592B387A60762F3D23
0827752042426D44791C3861187C1038
77505A0078516620002E0E231B256B6F
09772F164700374F101A7A512E5F5C3C
744F4B66377803697276576D34082E7C
6526567C092B68040D493D5C494A541A
370D1F29782F32153B216A023E5C3879
6F5B6E53016F43193E19441F746C735B
1C31296D71453A520033385F5067734C
687B2124357C631526147E4F55362851
5D465F1A32262C6076714B1417507E69
442C38051C20485C592753423238732F
0955751D36085A172B0A4D142C0A4877
084A782F015F350E7A2A1650085D0C2D
4A082B30333D29314F0F38320A770A61
440E042F14462D1E08091A6967770E33
2039384139610C452D4E1763042D7B37
503255460C2C742624123F5C395A3642
6D5C0F0E3A6D6135646C650777352F62
36776F4E795B192D78431E424E066749
4C792E1756134036532B567D635C5A53
5B0E681A5079154F6039111B6C200708
1316283D1F781527587B251210614D11
296653495310597D72754C330750072D
0D4D1950281D551E61565E0D69650206
31514F315C52524E35726B436C60531F
07110D41626F0F6F7B276058066C780F
1D250C5D1A5B0D0D3739413A56782E09
775635640934237870306C1B4B7D4557
72054B64777B280A2F111C38140C4435
22782157493E605E306B591506675503
2C0B29132F755378501D061A31626C1A
195F0F114D0B2A1F4950450F684E3A70
2F0C6F69501A38653D04755E383F3B69
45234B2A231348132A3D783E5D787C15
3E7162077B21783A0C621D4F43536C34
084E1D3B777D2C154A00661A587D2869
254335795A6F3329637D7A735F236F63
2B3C5F4507233B4178724D7137126720
06132F495930570C73401F4301104D1E
3713392952555A6C3F46455F46094317
0F2163081563746C046D6416341D3B44
7E4C443A100641385A0F17476C255644
4F665B42120C481E35501C20226D3F6F
3C2067445F490E797B3E36351B02744C
05120931184C7974212C312D6D651316
0B1E1A36741C1F187022120836065F3A
4E6525515D56172A107C4956143E2E60
197C262C5835026117162C2D326F1D52
4F67190D147E0D764E367404373C232E
6C281D6F58724B4D4C1B474A5D55790B
1F234449755234193660753001554B3B
5A61393C4F4542744528256E790C4335
7A41484819145D2006752D2228536A5C
22077B35162145242C4E72245D441668
44267073163443127D162D3F0F48293D
5572640C6F1D5459167164595D690020
540408044D48351C6F74033B3C302B2C
7819651E446C3470120249103E6A1A28
2741482B18483F7427077E1F4C1E2C5D
473E4A44322C434A5A4956214773402E
597703423C2C57556676057215103C44
2178677E522A0D5F68391C0F5D4F7929
14502A114D41516D1D2E6F16334B4A09
4B2E432F785A3F381D26455B02195829
432009051A392D2A3F4576411F266279
7B7A214D5D762142710647404C2C1260
29300D6705291C051346322949713438
5F0D3A741B0023476B464F0E377B0528
7615193528224F6E61152D753E5F4277
2F733112403C785B397050067D593E5A
0B0D68644F281C6B1A0F1021244D1560
0705380A6D7E01660F7A61164958187B
0069345F521C1E3403281F4A762C1847
7E454C59613A5510387A7156164B1D35
5E520B473B660C0F45491F0E632A6564
53237A0176275A20294C6D1E2E2E0058
03182C5B67610B43056E1B741B300337
675A7D0A55570D47111B04135018336D
1C46316729290A3F20074A2D2A19486C
7D5871450D162C2A2D2E42704B032F73
390D5C14443F51277664101E0B420548
4E1D53544623191607165C4103350013
22012A132A1B646A7266355B1801160A
5F002B6E320210282854456A1B66704C
2636651140384A2A13517E4C5268510E
4C5A39131D5B0332410C39330D466265
173779111510634B1967647572243E2C
2565391925636120667242671343346C
5311656B136C2A08312C1358237A7755
59095F55732D7E1920591C695A494065
4F1A215F721F40166936344C69531360
2868372202043B714C7A610241177B7E
4B285A55164334287A72547566677B12
5F344B247107066741445F6F2545697B
70186A355C2D0935567E583F6B6F0D38
2F52101F696F3C230A662935026F4760
3F3E5C715616542B0D054947302C2C17
164A1C47046E544D1F264F1710473B49
0D66405B62034C0E3242532552017D2D
4A40655A31270A046C544D0613674F35
7B6841156A090F7A6841336F674C2648
161116186350182147136B235D3D364D
0D375D286B2B6E376B6A6921395E7C78
163F0A0337684E15354E68507D23755E
377643156C062039124D096461203854
5B3E6E7D2059730A38407A29780C1835
110617275F1D4A3F7E606C690117490B
43381D2C130C70731A2061682C6A0731
19055F4C35065B7D346656323F203C3B
75136A314F643213532B362D001B7076
41670C3649652A456D75751A693E0C44
245000462C63437B5A15640C266B2B5E
415655466127130755350D035E314306
6A2C4F384835624B796E2800066C5152
5D68263C54286875667C6B7361715611
106A2712751C6444403943380F595454
1C564A3A7A745A0640393B2F69514B4C
7C736551204B524E0614697E767A423C
4F40364E470633667A40514423761C35
186B784D475941503968404360206C0F
445D263D5E2A2C3E4F0E6F1B24746841
3F3246162C082D747427143100316C5E
4440417C01417A681469741D52016719
73041A161A1C17216E5A7E12673A5312
3A063152156A233B5D5C572C46797C42
4860600E50173F735D69223B1A560E56
47011A5110455C257719024A24090B68
00761D165F12543C042A22581D151904
34471C5603386D162E571C2E27715265
0E493D574330630E470258330D716F04
155307530F5124284F1E0544051E2452
05336F5941592011652F024F0A712D1D
03223D4B252B6C6D6E12527A4C216F5E
2F3941377D1748762213573C5E442B7E
1E58371F3F722964071974600C006F0F
487E7B000C0F467E2C1A4D7144446269
044853463E2B6E222C1D167C3C6A3177
3734776A3321207E2127694349767722
466746734E0A51566A1D465D0058302D
252B667A322271622868437135571212
0968595B1E13260446660F01380B383D
534B5F7E6B303D6522211C023A523A50
715C47322F6F7B1E594115207C186435
2D005147286B4656314C402B786D3E27
2602016B4A745F5F33723153375B1F42
73291F27324F466975200755265A3A25
0B613B032D2F462A304D097906345F5F
44583C0D7502232457731122254F7154
4326625B7500426B340678253D201A5D
7331534445094B1D566D05344D527D47
731B5212737A04076852336B091E5F63
536943504A553D205D60655614230904
77727A4800722F0D5A3E3962435A683E
194D60752F53224E380D04783D01793C
0C1A68137649505470597D5607466675
4011391F506F19635371772E14511115
3F7839132D2066225C125C701B213305
2525006D4C4609731854714F16222667
69050A734C6B4E4F195312532A255455
6E346078503A6A505F09422F50386E59
2458282916371E240153173A56433E0C
6B357A12131330525C68385D406E3B61
3F136C7A69450E0C7C27462D3C38380A
052320071E1A3711212D0C444B363349
0B39267C0D592823131C076A271F0C56
3E314A037135454F5C2D792E14007900
34095B71446D66425820717D2457616E
0B1C7A0E585B016F771F3A40346F4A1E
4426451649350154183A7E43706E5B51
20474C3162183377637D4F6930797364
390D6B3A2F0337170A606F2454073C31
5B664C275549550020476C175063607A
5D2705583F794D0C483276236B2B330A
662D106129082C574567417C34714865
401B202C674217457515231A782F0264
53114C6926711A21053E5E4B16541C5F
557B13232E065505393F684908164D2F
057D0C0B22024220404C2267195F1D1C
77287D606B247B052E000867042D637A
28024074670947040B70706C762B2966
1E5F2F202B00760F0C265C4D703B0163
081D0E59464B5E4D707C114817676B7A
214003336C4442217652160C6F6B5F1D
19186A78106E355E7B6D26466F08744E
391C5868627B596D2A453465137A0207
78736C42763B2623020F352B2334721D
367C405C495D09583069491C7A1A006D
36755003187677763F6C243473006207
7E3F2C5C3E5D6F47326356320646655C
7A6346504B5C6430352B07092F550830
3A3849755A195456585B473851763734
5302293955212E6A7335603E487C6728
134722313B3922457526021D3E100D4F
2B3E64492D706A4B18042005332C7D22
7A4D757C28075D0F2C5C0D035320744A
4B51253173352962216D47276022326E
5D7A05413070225F362C5B1577106030
7C750469176B4E630F68104917652D07
7C4C1C2715497E6B285B5C584B7B2B0E
5E5C3B440E657A05131E28573B6A4B29
3B340F12503949404C581466146E1F2F
73591B1E2E450A7B0C0F76386D76474F
6B64700C1F4E691A6D5D0318087D7A13
1A2D2503670D1C0B314925006D16406A
0A152A75716E2B43547A5F62257E085F
3F260B42570E54435F713660756D1207
7A60025026410E00013B3D1175636B4D
485D481E553A383243581E5C376B4478
2E320D4455007D6B20326C5D061D0F55
69526E4A3214430E276343204F58040C
69327A787A210A76036173071F26003F
642343442D787D27180C573057237C57
0302567E122F7712010F44515F5E1C5B
18010B6973204302681E12692E103E62
122801224753627C524E15150064225C
47392971723C151B1C425F192E1F186A
64181C11171676384A55194F62263045
65657C12080C132B182B547E140F3A1F
717D013A1153301E305B182F2C2C1B64
482B59572176705902036151053F1423
4B2E0270350421055E70752D731F1335
39480D571E7E4C41764A64035661626C
4719327B2449265B5A1D55160A65017C
514427724D4274101C190A26554D3B4C
29264F393028444E47365C1F787B7471
4B600E715A1F2C604A35456D3B7B5F31
55712375343A685A13242A4C0F003B5F
401B0A2F480E07002C4833324F26161F
55651A38581F46273A2164563017411B
6236685B0F2F4E7C031A500410602665
33625B062B2E3A5675591A2E070B7335
21676F2C613A353D1F2F1B1C1E617058
63483712406F5D3C145B77254F286279
0C0B76082D7825656164754B7A2E0B5C
79616E76594B34227324101D395E6C7C
2D772D1037223762095C752E04564431
5A660F2A286C776961546D2801521C73
534107216B1C327C007E407A203F222C
7E52314F1A11555013563D16143C6F1E
1E146337746B0463676F664B3D216A32
3C5D787C405241136D43184406331257
146D475A4D0B0F38645F6757210D456D
0506291F65191D5F390F561C62665422
047A3D421F16694D263E0D2377080D0A
3A33384C642D441A4D447C33013A5A2D
227A785C274A05467007054F381A0921
75035263522567637463231B6F794931
53161472110A3A4D79550D3A3969136E
41232F751D653E2D1A1312166E272111
7872123553161A79254C5A6162345B6C
2037050A2D510E7E55147B05722F1460
575A231C457A452B740074193968087D
0837196C580D1D341C6F6154561F7877
65484128295D430F4A4E543D00476208
36476E306B775B21666A5861531C0C39
793723315B2A2E42663231275D37084C
2C6822364D74377852754E4C265D6C06
560F0E6725667D340D22196A6F541D7E
6404351A14765C5F14524766023D672D
6C25793D1449241A641A420D16321C69
7279402C577159505C21401C1C0F3F12
494B490C07066D223878273C3E4B755B
6323091112701271081120773B7A3C7B
491F3B51180F6E40524D4D465A7D6235
56580F0563740F1517646C101D430E55
6B7C7E68634F1F5D2B381A1411007B2E
7728382A214F06351A0A69021E082C38
0A1C0301087D3B4A3429013E43530305
414351477B715B1026095A3B45285C39
0922087636126C5A59242C49406A7605
75225C712D0644657C51234957233865
1026107A5113632B684E1D017E792759
271A413C66613A255234435A2C127E22
6E3D43236B6E62395F1E55354E524523
2E71080D631E487661774B186C470A01
58027E51034D3B605823607B507D1F24
7E1A472408260726140C350E12204D3D
25321F3A5E4351341A72106B347E1020
7079115B3C69592C664D030273073A18
7D5D47411E0D305352400F420A070800
65267A72390C643C6B42577A120A1E64
790B140F5F7815134B1C3C146F433570
02110955102D2515573C2F38710B3B0B
577D3E132A07645045581E190F291352
76495D4B7A2A402C6428112553611707
247D18542853441C6B5B530D48271514
1B7D065C00094A236B746D16370A7D1C
4B713E1B3E0B691E3836441041785616
2A616602392176297974447A08510B0D
77537805527D344D071E584306095F5F
566C51004A10261D093F523E6F503870
6E43781E271B16120E13592049194D7E
67050E42295E0764422E5E5B5B300A17
512B5A061F046B0D0A4B551348033328
334D536428713D3F6F603C367C7D052E
147A57337E4E2E1455415A2F1F6D7112
281079226F636F79565A35517D3A2561
1349616360105F591D693140534D7B5F
14752A4270044C31170B2F3028242776
4955165452100D57142C17571E43164A
442B5036116F3B45025F1B293F6A2A08
2A781600423717746C357359062E3F16
2F6A7E4E3F5E784F59072D5D1E0D1F35
0C7C717C6E1C546F3C531A2D25094E37
0828325665605E50072172236A4D615E
4D1800295B6119450D52473E1A304055
536E1044177510712F2850654B4A7B36
29200334054F1E30581A03285D373C6E
744D115578460C33794D6F291819720D
792F057E142568042D4E0353620C1765
0737516234040C023F633444270F1210
0A6320726C1D282E2205463B2D216718
40343757183C6C057D55605720017975
00053A7E2101121D4F6C0C626A55284F
2524043B701B48543144605239055775
58543973534E1A256310183967336B3B
7A1E405754424B22644F1A0C3241053C
191D3D58463E0219021B7A482C157309
1E1B4F13242C260B760D3C1A1909195D
52204C0F1B5853534D56593D094B7259
2C4167167823730506556840547D534C
00292E7E795C5B5F13100E256B4D3918
30570C4D1B220F1B1472696365310A03
21141E7E743E2D2E16654E3531066531
506A627D6A335E1E79485B655D5C6D40
6B2B3B554C4E734D756D38247B577613
0A4C52462B590A4A3D1A491035723D42
6E363D541B62711A3937694D3B1F782B
091746553446314531461E5D5E4A4E38
5A5A37581466304F34176E460A626F0C
262101394A7C13110C70101B23567410
2D4F4A447A5E071665472832232F1164
582427171F4D763F066538222347183C
646E7228496C471E0C413069674A511B
365D540B64020B33194C766766012400
2944664163287A3E54444A1225043F5B
277904575B632B42046B4B54063D2D3B
3E06572F7614525B687C137779227533
285C6C10487A3A481C18257057347544
4A70372C705F420672092E2C543E0038
775C1B3478027A314D7B2C26586A575C
6E7B0218492030092E577676471F5379
51535A6A20714F55690C4E72503E244E
044E02106862785B6260566E262E5336
4C4943622854704F2D416341360D2376
7534730E253F66152C28353314253904
756F04551855795D5C675A346F676666
61236E101F445C3A496C24435728363D
532C6A1C5F033F286F0C5C47777C2700
0D376321571616215E06657818551618
4C101B1020227351380A252C1C025C5B
6F68506926256F726D48102D4A7A687C
135C1740780A221A053D605D330C0960
100118360A7C175514361B1101323D03
117D7E4B5022392500571366633B3319
4F2449703D0A70793C4B780F04076E74
45590676077E152C2E05286251350060
726D553D11643B0F68473B3B426F7B3F
246E7A20596F7A627A420074666F6325
656C1B6C20755F151017735C6B64211D
1B2B07440F775D482066182F14795B34
1C0C335B72555B093E6D180D71366661
1B683F556D6C704D191F576B06440119
4B106F307A3C245936545164755E1A05
7831601E6B6E73624E0126697C09053C
7D396C53681E3E14024C1C1512163040
5C193153311E233E384362234B39190F
2B05702410612215511A181C1B501718
47446917756B642B65633B45013F754F
4802247764154C39471F0C0C55480554
1F3E711D234851482C25071929351532
59005876440A14384A0901301E20785C
22034369640F32566B27184E492C7A61
257C533A49540B4F0E603A785C1A3E00
2D3A27686E30451D1E797A025A394802
7A2A1C734C55644C4109021F085C0E50
48207B6D755B292913104E254E317D4A
3645531C6E0D075664273961487E1C13
5D707A7013085B284F1A746869780B20
575C332241542D44185756197D551F17
232F1507703D451658530C7B7B413275
101C0D7C4215300058216712037A5663
025E4A446926405136690D2D5B7C366D
732B60283F6E7D60302C5F2F751B6163
3D4769543E027D6F30591F4A601A3E20
08727E28326C3F21097302475534153F
3450137A7C4B0D20186F100D772E6138
606D7C3A48787D267651432224035817
594A1331515E3E41505C4D6B50785559
0D4F4B1C426F40451E7772742A404B58
4F357D54036A356F1F0C232A16105F05
3B522B45716E6717381659291F0C722A
31134858341026321D3C6159010F0E0C
002E6E373E290A023C066B553F243527
4B16025D294354385F525B0A1A234830
15165F39793939203A551A314C287C27
78303D5B0F513D1D337906602233151B
7D457B69763D1866696E4B5C431A3673
7D081A343A495961791924352B113671
36602E565502186A151429641A191A03
122E2A6C324E1F1C4A1F44105B734128
661D095C4D0154140222674025373744
7013484637101B0E6E015D255D4C657D
5F255F4D572023753C193E5212491418
5D1D40600D5A0E2F133F2A347B622102
1D7272286A5E1B12035E19706B7B4F1B
233C451410651568573858336F390C44
5A780601152B5E7B0C4D7C290E64567E
6C234D31533D6B203301462278200B5A
755808485030386F3D2E6E0407295845
01396444416D2716742E4A5957394062
6D3055754A4D4F0A7D372E1403273D26
1F3D6374336F2A3E0377452A38765E38
6D6A0F4E583374026D000E7E65444F5A
39326952455158007C072577125A406E
1E613B180D353F6F4C452822411D4515
3B7C434C266F712277437C7938205E09
2B212B33170D027E6D65192E7C3D3B16
3B624C032B1D0E752D6E071E09342275
2D696F771C09137933591A440F2C6C6E
7C6D50152807334C1C6F76783C681850
360C3F3C44284413043A28164C5F615E
54550E605333713534071F20554B2625
73143D617013436A411D740B4977221B
31724B366C7E4F6F2B4946516154500C
2D46253308163C135E74564231593717
242A44661F3539653201585540387C0C
5525740B335846791C1A47113F7B6970
73046A3951550E1965292B661724437E
510749006218401134280E3E10637763
40322B00241C0A722F046D52210C406B
36674F063F5B11704A3B7C4E5C230A3F
292B491519291133013F062D5E6F7641
51002B2578055A3B602F3B6E59377242
5373423F535263530D437C00742F291E
4553571265510227363E7309782C1210
0E216F57537E3E7907307E4D125F4470
647752285075090F09012F470C2D0358
695C545F4F7B6F236876495703411941
7B1D362D555D4C0F1573005031255B6D
031421280F59537B690C727329780E2D
5C1D794C57552E6C2F27466C1A6B2D0B
4B2B1F43611E456D6E0D0B3C1D5F3509
093F03190C39342F34445F1B1535240D
4D74610E063D5503521E1E555E11257D
66534F09234A05476C2C1B52255D495A
5D78114267533D14180D535E244B7D6D
4251661E363D2C49381A4707207E2837
36505B0939182B40175C0C520C49794B
52023E0A3756492028422A6A3D0C1017
3E354A044D146B59635013412A5A1A76
3835685360017B625634400E5E424863
6B15154F2C5F621151387B616A0C5259
6B6E1F77537961261308497D5E44774C
361F7D195E643E012A0A120858232B3C
1D1420286D17582B1E395E3050483C72
58205A2169271409527E440202367B63
414142414D516D126A083D4747183F79
79505A4E374A75130E2E3F41515E092F
077B710757403E6E0D14735B4A2D2E24
00722C355F56601E5C392E5A17420B70
4F45324D0D120857575A51334A787539
696E5E477D6E37157E286D727254027E
192D6066070E057761201D5E4F1A0D5B
1D5C042C4D6646191A4368387445286D
460820444C522C3075077E421D795C60
0A1511365820622076753E2D00395955
5F6E06052A1F021E03242A1A1C6B611C
324320695D0112144858255333565E3C
72007329601B7C691E06605B2C212230
0B25400B42446F7E1678744D44672D25
672F442C031A1C714B1F6B2001416D59
22331D3B2B4F414B5966762C21793D1D
44747C3D647406620F7E26795A074A67
603B5B4A4F1569340A59377662015D16
6D0E784D100C4F1F373F1F6C60167C4B
7B521D320C000D4F551C203F2B61157B
242A71302C2A2E1D2B511215055F6752
5813710052202768612755322D00043B
00684C71201E2E451E387372663F3171
49757D0F5874667664276F2F6B1E292C
474837430222611F743426376C2E5723
49500074495F7A7629025C012924501A
0C163A2252422B5C6423085462062E28
311F6F416E15676F4E30514D14251F61
00506D51335A3B070A4A576E0E68394D
6C101D3559622C1C0672497B720D2A4A
38670D56784902596F0A134242043575
2E79597E64691E72553D45386C4B3079
4E451F49761D274768686D0B70235029
07405125221D220A6D4E493D497C3D29
425F324B5D5E790C21502F43460C1370
6E4762254A046D095015085B0271321F
4443442C11384947125153770701477A
0A49051E4B2000067E43757C5D13764C
5B264C521B045B654A1C4D1357202504
340278401F1E7737016779013C0B7447
0216493C652F3E751C02731D210F4534
3A575A1E41734E414777432B78153A1B
277D005166134909594F1C0618760614
07180D1B18062036525614632B201F49
4C5D5143163C7343564E24471D1B340C
603D3E0C5E3A1A6C4A2E1F0C75340449
320D1433626A2758490F7E78393B0813
78483741010800143E68084F007A7A3F
594C63357427446D0C6020740B3A5E67
6E4E5231550029394E4300370C7D674B
0F4F552A696F763E0F7B461E67363049
175A397B673F3F033227185D1C213934
4A111A0A3E542069042D247262714629
1C27705A691B0A5859553A0070016D29
2046263A364C0C1061486F58546D0566
5C316C5A76136E572227695F2A5B4F2F
73465021031F6A7D0C111D6E26056474
603E305C5752467713142F121A7D3C6F
217952484C507E042F7D1E111D01232C
047D6A194D5552286956427E4C152A4F
543372232B7E2F09074E1E474E4A0764
0B7671316F50634B213B353941072D58
2E13586316350E2F295B100F365A2176
69355D250515346B30437076596C6257
1C6C460B244A69177A43095B647C6303
3B12491D7B0601197A21780C2E163256
2F4967507744765A3B3E075B6D6A7C1C
791C69620B1B2F197A7E573025556B6D
616F66454F3E0B363658567610576E1B
0C6C29015C4E41162E32004F1C317053
51285947336F0F0C22785A174F206548
09400E797704240227470C223C3C1F1E
500658126F350017606259062D6E2027
792B465B4054561F4E6841662A7D400F
136F314C734D630B4A5716572B33412D
11343E232A0916120966293B6E137528
2708056172245223295D2A2263712979
057C6746304F69366A422166161F2453
607D035E0B4C58154F245C1E1D653964
7B415928403E1758382E112A513A2A45
430D52455D754C1B2607294F0A285646
17124C5A3F33103E425F457122652A19
5E5109020225342D630D4A43571C4D15
086A241B7643782E07550D1D4A315931
4D7657685228065D0D4C11200C360F6E
5F584D2E3E7700180B016663606E4113
7923427966655448312254131D794F25
4A1C7C564C5A35402333163F18412069
4836260103184D60381A2D425F107D7E
216B0B4F2A273E041464254E704C346B
4B302B52385C18386E7514182F45436F
73140A0B2A6F7D7D41325735124D0612
53455573675C585D3C223F32111B000D
1B7C422763741848742E71187A70676D
02200F522C514F4C3156145E4E5B0B57
767C216D173A0C264F280B34584B2134
7D326C6A4A1C067D403616693339531E
3E31135C165550712D6472677C0B656F
266F361F14343F537C7E1C30456B7E29
46487830324E6B5B280F59473F37140D
2B35747619714D7E5B363810161D1F07
6C0B2062593C3C160E7D56743B064A31
29502329214D523C2D2E182B34023675
1210615C38165254576E3F6D277C072F
545635120E7A0244217A6D124C406468
02015B115B4D5633456E18370B104509
0965564C582616537464201531220F0D
46442E007C590D397408012136316A5E
5B7A45660949014376403B303073755C
1C3C202B5763352035645F4C4C1F5160
110548517C02600D7747574E64303F77
1F05556E584C1B3F4A122A161E3B0C7D
5A4B451028384565407B221E1518363B
0A606D1E00310E585E4D682E17736143
303A5E58587A69540A4C5A3C2E1A2F3E
112325023255261A4506046A1F53652C
612653070B6C420F4D5619596A520527
785C334641097B172F6B4F1031162411
6704570813577044106A413B107E6272
1C6140480B147560733C46467C150700
0B5C5E4153140C496E5854406A2E1441
3627624D4E32376D3577763E57200577
682020391859437C5E36622C2310036E
007D421F2663396F2C5220096A3D051D
513C2968105D03355415502D517B5300
561F2D3B56683A787B625C4A071C014C
24020A3F06136660533B6731492F7631
2D35120406402A533B7A49402A2A1B0B
500263511A0F2E10564F624316210163
630C607930600D457B175F4070605A23
26280A47175D4B03524178601E7A1C6A
3A7335256021740A405006777B250B4D
335A43786A714E2B760175046C231337
5713367564735C7353595E397E5B5216
3477260F212031406145320D53711C44
62146B243B5900234E2A6F2A2F015425
5C245448497212285A183B4638060938
5A3A1352066B6F3E7010602D7A297C3B
4958015B4604665C570C7B71207E2748
4D325E2F37234C225E2D1C1366644222
6A35491B2134146076046C323C1F3418
57743050765062382C6E44521F0C1367
423F5F4E1963516460740E1A322F1047
640B487B1F4D415A6665085E341A6718
261705605C66756E153B5D2959734B28
0E0F60191350061568022E0F54045D2B
611724490025631A546D710627677C54
4D646058613B3C142B7669176C2B0616
67713B6E7D0B0001174021403C6C0850
6C214A5649053A22201C0641524C597E
5C600E013244431A4B1F1C36520A1244
3565090C2B3D79503D08311A5C424413
603D3F5B3D241A483F792D64371B4332
171524737204092D70565B766E432266
1E396C043114660639426E031C736858
1529550D5F426E30133B195D34561920
416666315F286D3F466501054760337D
1D7E70565E5C441A376E11092C4F1C76
30336F325F294E750B75674577413408
6323676078325A797A2B747C11563224
4F0706021E644B54136B10404B1A566A
11345A6D663B71275D651B64056B6115
1142647334637533522B774A30150A47
35707638315615774F4D21674B2E4056
54054B6A5C7039637B6E74534B463221
4A17630B3B72393268513D441126302C
6657093E0C76152A67117C4E43461C2B
210A1429614F280E5C6F5C4F63593965
337056160F2523394D2F08754A55511E
783D33651B39781159774A3C6A227E28
1C2E6270742F35351F0D7366581A273C
296C52745F3E216F5278121242214068
29436113554040143471001821295E14
4E2321220E210B6A1E051F67374C6A66
5126276D11517010730503614B655551
1C36611D6C040B4A4A3F1F3963594858
131E565A54064616042016404E0E2445
7C183C37362D2A2D656C574E71087B49
0E176118076576750F652E5E54746229
34310A716C4E394C3E791F1D161C086D
235C07643752345F655E1972675A5D4C
1D69465413451B0461657A566238387D
155C14033A25737C574B111D6D083C5E
255D6170114A14334E443656765B5532
172C4211303D486B2043295D1119783B
70236C003F682C030A62642D62640F5F
1600510029190F5A0808322B0A676971
0A1E0758310C6404603262611E036A4D
5A7A2C1D6D3C18414B4A340D176F5E04
3220272918301E75624555486E3C072D
5B0F3A2E4D1F62216E6033175A5C3C5E
22182964504B5A161C646B5008156273
6F0A3443180C184D316075725B757D2C
3C586C61064F1767486B6D6C0536133C
046D2458230B40102F4C262D310B0E4A
4F411C44776C674C3A597A632D453505
4401525C615E4D47603765136F672E7B
6214743C2C60417C03710C212F780F11
0B766D2B622437047E6C6A631D556716
3357666A6A7667610B5C050366482238
511A7D672C3B004D2B15707A0610112F
7B030A7912330B6C4E4C781D7E25412D
276E2A565B44666B392418751A692A1E
055C4A1659070777027C5C2964740776
2E366D4C04416A0102423E7E74403F5D
124E204D6618782042242B365E043E68
56133169423D6838647C213809320955
26536C6031284A123C30417A1D0D4060
155C520A4B18287549584E4660672D15
245E751F2E451E497D7B217A6B5B1D22
402C753E5132327C340E0F603F584E28
4220722D0B5D67674C77103D1860016F
176151302F255D59496A40561B2F7E24
0F52052328510A5A47536D1330300B6C
486A0F6C4324776D325F266C154F053F
0B0F3001236C0D6A684C3E3F41722C15
282B0F7D7B614B167A585A72244E5A1D
784C7D7C7C6551374621486D2F75021E
13241F6E2A73080C50141B7A2374612E
3E55251027486A6A32155D5F153A553D
6242393C223F33051565782826211069
66591B101458150F1F01232A381F111D
5D0D3527670C57050F05580068681149
4D7C061458644F1C1254601C6E0D1345
0D13013E193E7E0D242A656F3958675F
316E283A2E25746E54606A60152B5B1A
0F4B0A076751700A773621422661244A
23706E1C434020364C5C0B635D257258
3A260646473C25723047382D2432227E
3F2D14170469223244232D5A02035652
701A524912162B312A6C460F3A6D2441
466E626045265425453F55300F1B2D1A
620F5316646C7E2C11256C07780F7E6C
4F0305413B346B455E214972652B4438
50193C7C022B620A0B495F5D012E190D
0E6F1B0976696F7C00742E363D466325
34755937564D767C554659442B731E22
42414E133C7E0A714C2A746603486F7A
1A5C5A19697A231D5C49165D552F5854
7554394E22195D4D2060456C5D613E47
7211122E58725A646641346276345C52
664917566C1C4953474A764F75587862
325C7A3826632351644C527B625D0F00
253B1B1403120F3C05391032092E6E39
7E66447C1D1270375551173637122F47
10260E6E462E5D5320462A0C4C66647D
387C7E023E61790A035F2D155B48182D
6D61157A70072959743E7B5F56430463
52122F5D16077A245A0A6E4667236B4B
3E064A1E4B3833183121656132060621
544B4C057644403C7E1745165F43195C
5C330D4A3C6336157E0039034602185D
492C3E074C4E442C655E376635247525
5B4E726066544F5A67640C7E75631129
095E432B77383D46543C25122D580837
2F3D5D25415F074F7616404842136052
190C3B381F167D4F5C5B37376A477C2E
5B5A30441A083A4A500752283F55640C
685531084E2D6268537948192E6B5420
610756693B104349704D1B43023A671D
5E0C4E00300A0B451B3B0D5B4A58764D
0B697E042E0F01165748240A7A472366
2767613D4D70405C000155755C68343D
0A0A0F080B413030216F7D5E12037C45
7D742E2B3F3E7817646239730E106F3B
36196A7847697E4A50251C6C57193018
1A6A7307233C071F06090249567D4065
377C680A52311B27710C357213357B29
572B671D5E506D4D514A5A733F120B01
07006208185B18461A6C505E456E5A47
133D35200E454C25764709453A394B05
5F065373736239311547137343396C30
6A3E5A4C61010A633F5A22273518457E
451A0F57220E4D4F324E50471E4C1B2E
64376A3D0A456C10432C08030F413C27
6F753D352260273267084F2205753879
005F6A7473726F323F0E06596A500B4C
36227C0F5D5817342B41341557690A7A
2B3C1F4F261851721C0977626D2D7102
15562D4F3B546B5D090F6E0916171404
0312195B157A7C6B1002032D6D4C141E
3B5604775E33207C6C5F1E0756361235
102A230E7B5E5D4D326B39401031182D
62064235621853784B766F055A6D6819
5426487600102F4D010A16452C49785E
594373612218373A00697C1868136B58
471C1C4D101A5C14641D7B14526D1737
2D4C2B19723A47431D0C6B61451D6E09
2D680523502F252B6F1904563A393476
462401042E1273347B3810203A61277D
36594D6602576E0B54721B1716086C48
50701A3345710F522D406B4415077771
18276C4D6D016B7A6140345B7D247304
355912657E5F6009274F065664643841
03103E1D4663495268250244381C5A56
1A44073C437B527C5B223E7705193A15
46473940241938042744242B041E6277
20500922794D30525742756B1D0D6411
240B4A6E73742B031B5854180820346E
3133780A47653A0135745C0512191F33
24747B25265855581645081F5D402C07
14175F3D5A23363C1978027D080F1D5A
21727335712A3614220E47490837496F
06761A6F467C710A58044F0C3312631C
7076045F02765B570206630F3E6D6C46
054A161C7B761E66581900405544506C
4B302E406410540F290D3F111D6E4B0D
1042673B5F480D2047491B4B205F6243
20413F2755217539361A05752D530207
4F2A792245086E4D567A5117203E197E
764A0E5A3177010C6D2368631B703924
6D3D6466372F5B1D543D74442A5D6B22
1B19036E09206765050C0D37357E5B00
7D1917753C1B625237756747650A1033
7025200443355A3F216237093425433A
00734E094860227E6F3E174461467670
156101410624250C787360686A756A11
554F79626407060339132A2A5750255F
6B47604B4F3437672064587D4E73455B
7042545F095D2373100B053D7B0B1733
